[PAD]
[UNK]
[START]
[END]
!
#
$
%
&
(
)
*
+
-
.
/
0
1
2
3
4
5
6
7
8
9
:
;
=
[
]
`
a
b
c
d
e
f
g
h
i
j
k
l
m
n
o
p
q
r
s
t
u
v
w
x
y
z
�
the
to
of
and
in
for
is
that
on
it
said
he
was
be
##s
with
has
as
have
at
will
by
but
are
from
not
mr
his
they
we
this
an
which
would
had
been
their
more
year
its
up
also
were
##ing
who
us
people
new
one
there
about
##ed
after
out
can
than
or
all
could
if
you
over
first
last
when
##d
time
two
government
world
other
into
uk
now
so
some
what
##ly
she
##e
years
against
being
them
no
only
do
told
just
make
film
get
labour
##y
made
000
like
such
best
back
game
three
many
should
next
##er
very
before
while
because
her
bbc
number
well
added
##t
market
any
take
music
most
way
set
may
says
##n
##a
##r
company
our
election
blair
those
2004
my
how
home
going
down
party
him
still
england
much
off
show
games
minister
go
million
then
since
top
work
second
##o
good
firm
say
week
win
part
public
high
won
under
use
mobile
country
##m
play
see
##i
between
technology
##es
end
did
five
think
want
tv
however
plans
used
10
players
brown
group
news
expected
through
both
economy
these
where
growth
sales
european
british
##on
tax
even
during
chief
london
four
six
day
2005
already
half
former
put
old
own
companies
money
service
net
services
britain
me
month
come
months
according
director
long
right
don
record
too
economic
help
based
2003
including
business
deal
europe
users
system
bank
industry
place
big
club
team
digital
international
re
##l
move
##al
report
firms
need
around
third
hit
another
video
##ers
phone
called
start
software
great
office
state
information
future
general
life
france
prime
really
court
open
took
howard
got
know
spokesman
wales
same
decision
found
better
united
came
final
law
president
january
radio
action
making
data
media
without
despite
give
national
seen
using
campaign
given
line
saying
side
##k
executive
far
figures
foreign
offer
security
likely
away
china
rise
oil
##an
leader
prices
whether
able
lord
real
ireland
lost
run
ve
lot
interest
internet
star
case
december
taking
##0
spending
biggest
chancellor
children
secretary
few
##ic
cup
michael
times
countries
early
man
online
strong
computer
later
awards
look
although
budget
never
recent
cut
hard
house
analysts
bill
tory
20
again
shares
every
free
pay
become
does
financial
anti
increase
legal
little
support
your
##bn
days
control
rights
earlier
following
major
microsoft
##p
12
award
nations
##ation
left
player
current
local
past
role
cost
rate
power
##h
##in
due
important
went
##able
ahead
believe
films
further
looking
must
playing
research
working
##man
held
quarter
sunday
tories
eu
full
announced
currently
david
yet
among
played
until
access
face
match
john
latest
trade
less
return
series
share
dollar
police
season
change
scotland
sold
different
thought
##ion
30
issue
am
lead
phones
##c
##g
always
south
japan
key
mail
programme
sale
chairman
clear
each
march
having
might
winning
performance
try
tuesday
website
##ting
almost
jobs
meeting
ms
political
war
##us
consumer
find
released
tony
claims
content
ever
50
american
problem
search
##le
problems
##en
chance
keep
personal
across
bid
demand
statement
behind
broadband
something
ago
february
here
taken
coach
head
job
low
manager
means
women
include
##th
price
getting
injury
investment
least
november
continue
term
wednesday
india
saturday
##or
##u
done
18
actor
coming
list
11
council
rather
site
things
men
minutes
needed
network
costs
level
monday
possible
##b
production
higher
sony
act
enough
global
plan
rates
total
allow
members
mps
web
##rs
asked
stock
available
once
point
reported
previous
today
young
band
doing
huge
human
known
lib
small
trial
warned
within
##ate
2001
football
weeks
buy
centre
friday
iraq
main
mark
success
agreed
chelsea
fans
running
title
victory
williams
album
led
saw
forward
recently
union
close
evidence
french
live
networks
result
yukos
profits
wanted
##ity
christmas
form
##nt
co
competition
reports
wants
cash
charles
let
version
city
hold
thing
100
15
committee
rose
##ia
call
calls
fact
several
##it
25
book
failed
september
single
vote
annual
consumers
health
meet
sir
##ment
aid
career
development
eight
hope
october
policy
trying
##ling
commission
difficult
growing
project
release
rules
television
fall
issues
liberal
movie
though
beat
family
giant
launch
##ry
box
event
ministers
why
##ie
##ted
##tion
apple
choice
customers
instead
league
oscar
race
2002
car
dvd
fell
liverpool
products
virus
##te
##x
17
comes
euros
nothing
others
short
sites
stop
york
##5
actress
board
education
name
popular
shows
similar
thursday
##ch
##ive
boss
debt
large
paul
##7
##f
boost
changes
involved
order
received
conference
feel
goal
showed
west
cannot
denied
devices
pre
singer
##ise
champion
jones
largest
late
manchester
arsenal
italy
points
together
mean
results
sport
didn
fourth
germany
parties
range
sent
summer
believes
independent
paid
pressure
##ne
accused
parliament
pc
rugby
sure
##led
ball
remain
test
break
festival
martin
##ised
40
africa
association
gordon
olympic
russian
themselves
conservative
ensure
german
prize
seven
stage
stand
stars
talks
weekend
attacks
bring
potential
scottish
senior
##2
##ful
##ies
##ty
exchange
hopes
markets
official
per
special
taxes
university
##8
irish
kennedy
needs
opening
position
round
tour
##ce
cards
charges
date
launched
sector
14
2000
charge
chart
dr
immigration
numbers
street
whole
create
entertainment
leading
##6
##is
24
anything
attack
comedy
gaming
generation
impact
makes
squad
##4
##ent
2006
age
drive
helped
laws
night
private
quite
school
target
tsunami
##z
claimed
comments
fight
grand
meanwhile
provide
started
workers
13
16
area
compared
cuts
force
google
remains
sell
simply
standard
view
voters
##3
##el
america
average
claim
lords
outside
process
proposals
survey
##9
##ley
appeal
fund
officials
rock
speed
##ra
##ter
areas
bit
bush
civil
created
either
idea
opportunity
poor
russia
speech
via
##1
##se
##ton
battle
card
course
everyone
included
lower
press
screen
##ness
##re
australian
ll
##ts
period
spend
systems
turned
windows
wrong
##w
admitted
agency
black
brought
decided
double
everything
forced
himself
history
mp
ray
shot
staff
##ist
authorities
care
davis
department
fraud
groups
investors
june
whose
worked
##at
became
details
gave
itself
member
post
robinson
value
widely
worth
##ated
campbell
commons
drugs
levels
management
moment
newspaper
quality
takes
body
challenge
concerns
confirmed
deutsche
energy
extra
finance
host
situation
smith
spam
turn
websites
##ant
##ating
##ble
amount
concerned
debut
hours
insisted
longer
message
risk
selling
speaking
spent
story
tough
##ge
audience
central
credit
cross
experience
focus
hollywood
income
james
love
original
soon
##ding
##son
account
aviator
bought
euro
figure
fox
happy
increased
states
track
##ring
file
looks
pcs
person
robert
step
technologies
de
device
download
front
lives
messages
particularly
positive
previously
song
trust
files
hand
johnson
mobiles
non
politics
row
signed
training
##less
##v
bt
community
conservatives
majority
met
offered
picture
raise
terms
unit
##ar
##ct
australia
ban
cabinet
dems
nominated
north
programmes
scheme
serious
watch
##ve
alan
analyst
april
banks
confidence
critics
named
opposition
parents
poll
schools
stay
threat
27
a�1
began
blunkett
designed
domestic
easy
example
fast
gone
indian
madrid
titles
##ian
argued
ask
bad
build
effort
fear
leave
light
looked
matter
response
revealed
spain
##ors
allowed
becoming
believed
defence
images
measures
newcastle
often
shown
##ally
##et
attempt
debate
dropped
mike
millions
moved
nearly
pair
peer
program
reach
reached
rest
social
##ck
andy
athens
businesses
capital
favourite
kept
predicted
ready
rival
send
terror
trading
##age
##ier
19
answer
anyone
computers
crime
field
followed
inflation
keen
nominations
suggested
ukip
ways
wide
22
agreement
building
ceremony
english
gadget
hands
leaders
operating
peter
profit
ruled
significant
thousands
wireless
##0m
5bn
ability
affected
category
highest
hour
id
japanese
machines
nintendo
organisation
premiership
rule
air
along
approach
artists
cases
channel
commercial
death
disaster
fair
judge
nine
planning
shadow
spanish
towards
above
clarke
expect
giving
loss
missed
offers
portable
programs
protection
recovery
rejected
songs
stake
winner
camera
captain
code
contract
couple
doubt
drama
illegal
individual
kelly
minute
near
offering
question
sign
takeover
written
##as
##line
##ur
3g
add
below
champions
child
east
felt
gold
magazine
maker
probably
rising
society
students
##ance
accounts
asia
billion
controversial
criminal
deficit
definition
died
federal
ferguson
golden
overall
planned
produced
product
raised
receive
road
##de
##ke
##ll
##ping
confident
criticised
democrats
developing
gadgets
happened
joined
musical
pop
richard
ruling
sound
suggests
talking
unemployment
viewers
voice
wins
academy
august
compete
defeat
exports
faces
glazer
heart
minimum
records
speculation
study
talk
white
##ad
##ary
##os
##st
actually
backed
drop
experts
guilty
jamie
mind
movies
paris
policies
protect
questions
spot
taylor
##ction
##ure
60
continued
efforts
george
kick
kilroy
orders
oscars
output
producer
refused
shareholders
thomas
##ard
##ging
##ible
##nce
##ns
200
asylum
closed
ex
facing
fuel
gm
grow
happen
insurance
july
lose
machine
poverty
published
red
silk
standards
starting
welsh
winners
##ro
advice
changed
chinese
concern
console
described
earnings
effect
elections
electronics
hits
king
language
lse
operators
pictures
politicians
reason
relief
singles
tackle
woman
##ey
##id
##ped
built
buying
dem
especially
events
inquiry
kind
park
retail
someone
starring
supporters
theatre
warning
writing
##cing
##ds
##ged
##isation
##ma
andrew
announcement
asian
avoid
baby
considered
copies
corporate
daily
draw
economist
ended
goes
harry
jackson
manufacturing
missing
particular
powers
property
targets
text
unveiled
xbox
26
28
appear
bankruptcy
duty
fit
includes
index
investigation
lee
moving
penalty
piracy
promised
revenue
separate
waiting
##ish
##ny
500
alongside
beyond
comment
decide
direct
estimated
families
finding
follow
improve
lack
massive
meant
mini
reform
responsible
seed
showing
sports
subject
tournament
worldwide
##ded
##ford
5m
alone
benefit
broadcast
cameras
deliver
green
hoping
introduced
justice
limited
matches
present
successful
adding
appeared
capacity
carry
certainly
continuing
feature
friends
gamers
increasing
living
marketing
owned
progress
san
save
sky
slow
source
steve
strategy
straw
sullivan
true
works
##ising
##ned
21
address
aimed
auction
doesn
drug
edinburgh
existing
greater
ground
middle
milburn
morgan
names
pensions
pretty
quickly
reduce
slam
striker
suffered
tried
understand
vice
##am
##ner
agree
cable
championships
chances
consider
develop
favour
forecast
models
operations
panel
picked
seek
seems
tim
turkey
uses
wage
##ious
##land
##me
1997
activity
boerse
cutting
electronic
funding
funds
gerrard
handed
holmes
housing
hunting
indoor
questioned
responsibility
review
smaller
traffic
travel
##der
##est
##ine
##ning
##rd
affairs
athletics
blogs
gives
interested
issued
lawyer
limit
losing
producers
proved
referee
seconds
sort
stadium
tie
victims
##il
##ous
31
3bn
birmingham
born
design
fiat
format
gazprom
hip
makers
onto
parliamentary
paying
putting
rises
simon
spread
terrorism
unlikely
##sing
advantage
beginning
clearly
democrat
fears
features
food
gas
israel
legislation
los
mails
nation
pension
produce
proposed
read
scored
secure
station
super
technical
##red
45
airline
benefits
broken
certain
conditions
continues
decisions
ds
falling
faster
gmt
homes
inside
interests
korea
leicester
lets
model
paper
serve
sides
simple
store
throughout
urged
van
visit
visitors
1bn
basis
brian
culture
damage
developed
display
else
helping
increasingly
ipod
links
multimedia
natural
pass
presented
prince
relationship
spyware
tell
user
##king
administration
cardiff
claiming
clubs
common
decade
dominated
driven
editor
expectations
foxx
interview
operation
replace
revenues
sense
straight
suggest
traditional
unless
viruses
##ably
##go
arrest
aware
a�2
books
broke
com
connection
deputy
downing
dvds
finished
hoped
organisations
reuters
size
studios
suspended
twice
watchdog
worst
##bs
##ney
##va
assets
bigger
bringing
creating
critical
crucial
executives
faced
filed
fly
gets
hop
image
immediately
morning
remained
rosneft
savings
sending
vital
william
##cted
##ham
##ir
##tive
70
80
accepted
california
consoles
difference
engine
failure
fees
fi
finally
handsets
hd
increases
isn
leadership
monthly
olympics
opportunities
pace
population
prevent
prison
quit
reforms
room
sharing
spokeswoman
strength
telecoms
tests
tipped
transport
worldcom
##ability
##by
##ence
##per
##ration
##ual
1999
caused
charged
ebbers
environment
evening
handheld
henry
italian
land
managed
mortgage
obviously
owen
passed
places
pledged
profile
seeing
surprise
telephone
touch
versions
##field
##im
##ism
##tor
allegations
arrested
cell
character
chip
considering
developers
effectively
fallen
forecasts
greek
highly
initially
link
northern
powerful
prepared
provided
returned
sri
talent
transfer
trouble
voted
yen
yugansk
##ick
##ists
##na
##nd
##no
##ving
1998
23
african
angeles
banking
brand
cause
courts
directors
division
documents
expects
expensive
fellow
fresh
impressive
lawyers
officer
proposal
providing
push
retirement
rivals
space
studio
teams
trend
yahoo
##00
##dy
##ger
##ile
##ks
##wood
aim
amid
attorney
cap
carried
cars
celtic
centres
championship
charts
cinema
commissioner
cover
discuss
documentary
driving
fine
goals
grew
improved
intel
knew
linked
losses
malicious
miss
older
projects
recorded
score
securities
stephen
strike
supply
suspects
thinks
word
##ical
##io
##ions
##ore
##ri
##ver
accept
alleged
appearance
chosen
committed
crude
domain
easier
fantastic
introduce
join
kenteris
lawsuit
leaving
marathon
military
modern
plays
playstation
queen
respect
risks
royal
science
seeking
skills
tennis
treatment
wait
##ial
##la
##ps
##sh
##shire
##tic
6bn
achieved
aids
allowing
asking
athletes
a�5
beating
boeing
charity
competitive
completely
criticism
dead
decline
detailed
directed
fifth
follows
gain
goods
iaaf
ian
improving
interactive
jack
mourinho
overseas
pushed
radcliffe
rap
region
self
storage
style
supporting
thinking
treasury
tries
trillion
trip
wenger
worried
wrote
zealand
##ited
##lin
##ow
##ss
##um
35
4bn
assembly
behaviour
blue
camp
century
chris
closer
concert
core
disappointing
drawn
fa
finals
freedom
jose
medal
ministry
p2p
seem
slightly
sources
stronger
tool
wasn
##co
##ice
##les
##ncy
##ng
##tt
absolutely
aims
alex
banned
basic
bath
blog
boys
doping
fighting
finish
fully
glasgow
indonesia
jail
kevin
knows
la
murray
opened
parts
reasons
regular
remaining
resources
scale
sun
views
wing
##ations
##ified
##ries
##ue
1m
approval
art
bellamy
competing
contest
creative
crowd
effective
eventually
explained
factor
father
graphics
heard
hill
hodgson
holding
hotel
imf
infected
influence
institute
listen
manifesto
matt
mid
mp3
mtv
opinion
owns
partner
perhaps
prove
reading
reporters
seats
sees
setting
settlement
sydney
tech
telling
thanou
thompson
turning
vehicles
wi
##ill
##ol
##ut
##well
1980s
29
75
90
accounting
acting
adults
arts
backing
bond
borrowing
breaking
campaigning
choose
collins
connections
controls
door
downloaded
dutch
elected
everton
failing
famous
fed
female
jason
joint
jonathan
journalists
jump
killed
loans
mac
material
maybe
myself
oliver
opera
option
peace
performances
raising
sixth
son
surprised
task
voting
weak
welcomed
words
##da
##ening
##ering
##ga
##hip
##ities
##out
##ren
##rey
##ud
1994
34
8bn
aged
artist
a�4
barcelona
benitez
citizens
class
communications
conte
creditors
currency
edwards
emerged
extremely
frank
happens
hugely
hundreds
industrial
judges
lewis
memory
ones
operator
optimistic
plus
psp
rangers
replacement
republic
roddick
scott
struggling
swiss
ten
tools
totally
type
waste
watching
wouldn
##ants
##od
##tch
actors
acts
advance
agenda
associated
bafta
brother
classic
clean
construction
crisis
dance
deals
delivered
drinking
economists
effects
enter
fee
fiscal
gdp
graham
haven
injured
lanka
larger
learning
managing
mass
organisers
owner
owners
pick
professional
rapper
runs
scene
shared
signing
signs
specific
steven
stone
swank
upon
wife
##ff
##sed
##ta
##ti
4m
appears
attention
borders
cast
cent
cheaper
colour
contact
desktop
determined
directly
ea
earned
encourage
eye
false
forsyth
founder
gara
greatest
hearing
hiv
honour
hunt
intended
lions
manufacturers
medical
mrs
novel
options
parry
payments
performed
ran
sideways
slowdown
sometimes
souness
statistics
unions
vera
water
winter
##berg
##ened
##ings
##ite
##ments
##mer
##ms
##ory
##pt
##rt
##sa
1990s
2008
2bn
300
7m
application
attempts
attend
blamed
browser
commitment
completed
contrast
easily
elvis
enjoyed
hospital
industries
label
lines
lists
marsh
pitch
pointed
quick
remember
safe
scandal
scorsese
screens
sheffield
shut
southampton
tickets
usually
western
wilson
wimbledon
##8m
##cy
##ide
##osing
agent
alternative
announce
assistant
church
complete
controlled
creation
davies
deep
delighted
disney
distribution
drake
employment
engines
entry
fake
focused
fun
hear
interesting
letter
lowest
package
perform
producing
pushing
reducing
related
safety
seat
sets
speak
speeds
stores
ticket
variety
vodafone
wider
writer
100m
8m
abroad
airlines
apologise
audio
begin
bittorrent
block
bmw
boy
brands
calling
celebrity
christian
colleagues
collection
damages
definitely
desire
environmental
essential
everybody
fixed
goldsmith
innovation
jewish
keeping
learn
leigh
loan
milan
opposed
patients
phil
pirated
possibility
pro
reduced
reserve
risen
semi
session
solution
standing
structure
stuff
veteran
wall
weather
wine
##bing
##den
##ica
##ina
##nts
##ster
2010
7bn
actions
agassi
alliance
allows
balance
britons
corner
councils
defended
demands
dollars
eastwood
estimates
euronext
exactly
factory
fastest
federer
flanker
foot
friendly
halo
infrastructure
journalist
letwin
originally
ownership
page
phillips
popularity
prescott
researchers
resolution
rich
satellite
stations
texas
thanks
trials
useful
violence
vision
write
##6m
##ai
##cher
##ify
##its
##ka
##ls
##ron
##ties
2007
32
ambitions
arm
bell
breakthrough
changing
clash
clive
closely
comeback
complaints
copyright
dallaglio
defender
direction
donations
driscoll
dublin
earning
edge
expressed
friend
gained
grown
handle
hardware
heavy
helps
henman
hewitt
ibm
ideas
jeeves
legitimate
lots
mainstream
movement
multi
negotiations
obvious
ordinary
organised
promise
proper
prosecutors
reality
recognised
regularly
shops
st
staunton
stressed
table
testing
threatened
tom
worse
writers
##5m
##ctive
##gan
##hed
##ics
##med
##men
##res
##sion
##uring
##way
##ying
36
60m
65
advertising
agencies
apart
argentina
audiences
backs
blues
bob
buyers
candidate
channels
climate
cold
contribution
downloads
employees
entire
express
flying
foster
guy
handset
hughes
injuries
ink
invest
listed
monitor
nokia
nomination
ordered
outlook
papers
physical
placed
poster
potter
pulled
relatively
replaced
reportedly
roles
sec
sensitive
servers
shareholder
stability
steel
topped
vulnerable
wilkinson
willing
yards
##fied
##orn
##que
150
abuse
additional
a�3
ballot
beaten
bills
blu
broadcasting
commit
computing
conducted
conflict
contracts
controversy
cope
danger
declined
defend
dismissed
episode
expansion
foundation
hopefully
hospitals
illegally
indeed
individuals
joining
kong
lending
maintain
mci
mistake
moves
moya
murphy
patent
penalties
pocket
purchase
reaching
recording
remove
represent
reputation
roger
ross
sentence
sequel
settle
stopped
suffering
targeted
terrorist
threats
un
vast
whatever
wonder
younger
##ak
##ap
##ators
##ca
##iff
##ik
##j
##ler
##nes
##sive
##tes
##tions
##ul
400
48
800
adds
affect
alexander
americans
approved
attacked
attacking
authority
bay
capable
compensation
complaint
complex
correspondent
detained
detainees
dicaprio
duo
earn
economics
entered
fire
gary
gathered
initial
initiative
keeper
laptop
leads
leeds
leg
listing
merger
mirza
murder
nice
nominees
normal
practice
premier
promises
prompted
pupils
seemed
spammers
split
starts
status
suit
switch
telegraph
thailand
thank
thrown
ukraine
venture
visa
westminster
wish
##2m
##4m
##ac
##des
##down
##fer
##gs
##han
##hy
##ied
##ight
##ki
##ming
##oon
##pe
##row
##shed
##tors
##tte
##ward
800m
ac
afford
arrived
athlete
becomes
blow
canada
ces
challenges
closing
congress
constitution
debts
disappointed
discussions
eyes
fan
federation
firefox
flight
forces
gap
hosted
intelligence
investments
khodorkovsky
laptops
largely
lg
miller
offence
photos
praised
premium
required
respond
ruddock
rumours
secret
sex
shape
sharp
silicon
spring
swansea
therefore
triple
trusted
victim
virgin
wal
walk
welfare
whilst
##ath
##bly
##ft
##ient
##ily
##ins
##kins
##lon
##ort
##ple
##side
##ub
##ved
##vis
addition
ambition
angry
applications
autumn
bench
bids
billions
boosted
candidates
carefully
cole
commerce
constituency
customer
dec
efficient
enjoy
established
exciting
ferdinand
gartner
granted
gun
hdtv
hurt
immediate
indicated
instance
iran
itunes
jim
latin
limits
lisbon
mart
medium
necessary
opens
pages
parker
partly
perfect
plant
pleaded
pleased
professor
proud
racist
retailers
returning
returns
schemes
shock
sparked
student
subscribers
substantial
succeed
sweden
tells
theft
ulster
ultimately
votes
welcome
##1m
##ack
##ain
##ans
##ba
##day
##em
##ike
##ip
##ives
##old
##oo
##ool
##ot
##rate
##rated
##ree
250
3d
42
43
alicia
appointed
author
barclays
barkley
base
berlin
bolton
campaigners
capt
chips
cleared
confidential
convicted
damaging
daughter
davenport
dedicated
departments
disease
doubles
douglas
elderly
encouraging
equipment
estimate
extend
falconer
feeling
feels
flat
gloucester
guantanamo
hot
investigating
involvement
island
jean
kicking
knee
lies
lifted
likes
linux
materials
mother
neither
norwich
orange
outstanding
piece
platform
poorest
predict
presenter
properly
prosecution
pull
ratings
regime
regional
relay
reserves
reveal
rooney
saved
scrutiny
silver
sought
spoke
sporting
stepped
stories
streets
struck
subs
sued
tackling
tait
tend
uefa
unable
understood
visual
wars
watched
##ah
##ched
##ches
##ess
##ians
##ium
##ked
##ko
##lo
##ni
##ung
##vo
000m
200m
2m
9bn
achieve
anniversary
anywhere
apply
argue
baikal
bands
bar
ben
blind
bloggers
boom
boxes
chamber
charlie
charlton
cheap
communities
copy
couldn
crown
da
decades
desperate
dial
edward
elsewhere
emergency
employers
enormous
entirely
export
fewer
finances
forum
frost
g8
gross
henson
hero
hong
honours
households
identity
ill
jury
ken
legend
letting
liam
moments
motorola
newspapers
nuclear
ofcom
officers
officially
operate
payment
posted
processing
provides
publish
quoted
racing
recognise
recover
relations
rings
rupees
scrum
section
selected
served
seventh
shell
slower
southern
square
strongly
suffer
switzerland
teachers
teenage
terrorists
tested
toshiba
train
various
vehicle
wild
wonderful
woodward
worry
##ace
##bo
##cent
##fy
##ini
##ire
##mp
##one
##op
##py
##rn
##tle
##ulate
1993
600
64
85
addresses
analysis
apology
argument
assault
atmosphere
automatically
badly
begins
bodies
bottom
brazil
bridge
caught
cd
combined
convention
coverage
crash
detention
disabled
distance
document
dramatic
drink
ensuring
equity
forget
fundamental
gains
gig
globally
globe
hearts
heineken
hidden
highlighted
hilary
houston
hybrid
improvement
items
junk
keys
knowledge
livingstone
male
mayor
measure
midfielder
mixed
monitoring
motion
muslim
nets
ons
pack
pledge
plenty
preparing
regulator
regulators
remarks
represented
resignation
resigned
rural
rush
seriously
serving
sister
solid
stade
stocks
stolen
strategic
subscription
suggesting
tight
tobacco
tottenham
tribute
universal
villa
wright
##0bn
##7m
##ast
##bert
##bury
##ending
##ever
##ky
##lation
##my
##ption
##rry
##uted
37
accident
advanced
aiming
aircraft
albums
anfield
ankle
appointment
argues
balco
behalf
bomb
branded
broadcasters
butler
callaghan
categories
chat
commodore
conduct
corporation
declared
defending
democracy
departure
destruction
discipline
discussed
ease
economies
entitled
faith
falls
familiar
favourites
fbi
fired
ford
formal
francisco
franz
generally
genuine
governments
hague
headed
header
hi
hide
highlight
holds
imelda
impossible
impressed
incident
incredible
internal
judgement
kids
laporte
laser
lewsey
lift
lock
mainly
maria
minority
musicians
negative
nick
pensioners
performing
photo
pound
predicts
priority
protected
provider
proving
purpose
quarters
receiving
reconstruction
registered
remote
representing
require
retired
saudi
shake
shop
sophisticated
spoken
steps
subsidiary
subsidies
suddenly
twickenham
understanding
usa
wanting
warner
weapons
whom
workforce
worm
yes
##ach
##als
##cle
##ens
##ered
##ery
##ets
##head
##ig
##illy
##istic
##lined
##ons
##port
##ral
##rin
##ris
##ser
##time
##uck
##ug
##ugh
##unt
##urse
39
44
55
acknowledged
activities
adopted
adult
adverts
allegedly
allies
animals
anybody
appropriate
arms
aside
aston
beijing
belief
blackburn
blocking
boosting
bosses
characters
cities
collapse
college
contained
covered
cuba
cueto
dawson
disc
discovered
dogs
doherty
dubbed
elements
engineering
entering
ethnic
excellent
extended
facilities
fail
featured
formats
forms
gardener
gates
gb
grant
handling
holder
holiday
importance
insists
israeli
kim
las
margaret
mcconnell
mcdonald
monetary
motivated
nature
nissan
nor
odds
offices
ongoing
optimism
palestinian
parent
peel
percentage
prefer
presidential
promising
prospects
rarely
readers
recall
recession
regulation
request
roberts
robin
rome
ronaldo
secured
select
servants
shooting
somewhere
soul
spider
stands
starred
string
struggle
struggled
studies
summit
supplies
tribunal
turkish
u2
usual
virtual
wave
##3m
##50
##ald
##ancy
##ane
##aries
##ching
##gb
##gy
##house
##ically
##iting
##ivity
##ld
##lies
##ogue
##ound
##oy
##ria
##right
##tter
##uing
##ulating
##ute
1500m
achievement
acquisition
agriculture
al
amazon
aol
applied
attended
attract
auto
awarded
background
bnp
bowl
brazilian
brussels
constitutional
cook
dark
dean
dent
directive
disasters
dispute
dj
doctors
earth
equal
featuring
fined
fortune
francis
giggs
glad
governing
grammy
guys
happening
heads
improvements
iptv
jay
jet
jonny
juninho
labels
managers
matters
matthew
messaging
middlesbrough
mitsubishi
motors
munster
napster
nhs
nobody
ourselves
paula
perfectly
peston
philip
pledges
policing
possibly
potentially
prizes
processor
realise
realised
recognition
referendum
reflects
refuse
regulations
represents
revolution
samsung
saving
scheduled
scoring
shopping
speaker
spirit
stages
statements
studying
succession
tracks
triumph
truth
turns
upset
utd
vegas
visiting
winger
worlds
worries
##30
##80
##9m
##air
##ann
##ats
##ature
##bc
##bit
##ee
##een
##els
##ere
##form
##gate
##itz
##lines
##pa
##pped
##ues
##ula
##ze
##zy
33
47
afterwards
airbus
andreas
army
article
assess
a�10
a�100
barrel
begun
bernard
bet
booming
bruce
chain
chicago
click
clint
counter
criminals
detail
discussion
distribute
doubled
downloading
draft
drives
eastern
efficiency
eighth
emerging
equivalent
expert
factors
festive
feud
fitness
fockers
funded
gear
greece
ham
herself
hitting
hole
hosts
husband
impression
independence
intention
involving
iraqi
jeremy
joe
launching
library
lived
lopez
lucrative
lycos
magic
marks
mary
moody
motorcycle
mouse
multiple
neil
nicolas
none
orchestra
presley
privacy
profitable
prop
prospect
protest
providers
qantas
rating
rely
repeatedly
replay
reporting
robbie
runners
sacked
safin
scenes
screenplay
sectors
seeks
sensible
skype
sprinters
suggestions
takings
telecom
tindall
treated
troubled
types
unfair
warnings
wasps
wealth
window
##act
##ang
##ay
##ell
##eo
##gged
##hood
##late
##life
##link
##lled
##maker
##mo
##mond
##mont
##named
##nsive
##oly
##ome
##oran
##our
##ova
##ph
##rating
##sl
##ually
##ubs
##ulation
##un
120
3m
62
9m
affordable
afghanistan
andre
apparently
aren
attracted
a�6
bail
battery
blame
boston
breach
bristol
cabir
carlos
challenging
circumstances
citigroup
colin
combination
comic
compiled
connor
consecutive
consumption
cool
corp
craig
damaged
dealing
dealt
decent
deeply
delayed
denies
die
domains
drivers
dubai
egypt
electoral
enable
encouraged
era
exhibition
expand
experienced
exposure
fashion
feet
fiction
forthcoming
founded
freeze
gallas
genre
guardian
headlines
historical
imposed
iron
itv
johansson
johnny
jp
kate
keane
knocked
luxury
malcolm
marked
meetings
membership
mexico
millennium
moore
morris
netherlands
offences
oppose
osbourne
outcome
overcome
oxford
passport
peak
personally
polls
positions
pressures
properties
protests
ranging
reaction
rebuild
reflect
reject
reviews
robot
roy
scots
screensaver
serena
smart
solutions
sorts
sounds
stick
strengthen
stuart
sundance
superb
supported
supreme
surrounding
suspected
suspension
sustained
thirds
thriller
tourist
town
typically
units
upbeat
values
wake
widespread
worrying
##ctions
##don
##fall
##ingly
##ink
##ises
##lessly
##light
##mous
##net
##night
##om
##place
##pp
##rily
##rive
##ses
##up
##urt
##val
##wan
38
41
51
52
56
absolute
activists
alastair
amazing
amounts
anticipated
aragones
argentine
asset
aviation
bates
binge
blackpool
blogger
breakfast
breaks
brothers
burden
capability
carrier
carrying
client
clients
coalition
collect
competitors
compulsory
concept
confirm
connected
contains
convinced
cooper
corry
dam
delivering
deny
doubts
dragons
ending
epic
eurozone
evolution
exeem
explain
explorer
extent
external
extraordinary
findings
gambling
goalkeeper
grounds
guard
harder
hsdpa
ice
idol
ignore
imports
innocent
investor
invited
islamic
itv1
jimmy
joins
jumped
jupiter
keeps
killing
legally
liberty
libraries
married
mcfadden
mcletchie
millan
momentum
morrison
mubanga
mutu
nasdaq
nervous
noon
normally
norway
oaten
operates
ospreys
otherwise
patents
peers
pence
plane
posters
praise
presence
principle
prior
putin
quotas
rapid
rbs
regiments
regions
replacing
reporter
resort
revised
screened
searching
shoot
skipper
snow
spokesperson
sprinter
spurs
stern
stood
surge
surgery
suspicion
tommy
tourism
tps
ultimate
unacceptable
upgrade
veritas
voter
wages
wmc
xp
yuan
yuganskneftegas
##anda
##ano
##back
##be
##bed
##che
##eering
##eria
##ese
##ha
##ification
##ination
##ition
##lan
##lands
##lf
##logy
##rant
##rass
##rts
##sen
##uise
##ump
##ution
##wa
##yer
##ys
20th
400m
53
700
87
active
adam
adaptation
adoption
afraid
aggressive
alcohol
ashley
attempting
audit
awareness
a�35bn
beckham
bollywood
bot
broadcaster
byrne
causes
celebrities
chase
chose
clark
coast
collected
commissioned
conspiracy
count
csi
dan
dangerous
defeated
delivery
determination
dinner
divide
doors
dream
duff
dyer
easterby
ellis
episodes
equally
europeans
expecting
fame
fannie
farmers
farrell
fierce
fill
fines
forest
forgotten
formed
frankfurt
functions
g7
gareth
giants
girls
glory
hackers
hardly
headline
heavily
honoured
ie
impose
incomes
informed
insist
intentions
kicked
lane
licence
malaysia
manage
mercedes
midfield
msn
mutual
niro
note
offensive
opponents
pakistan
partners
partnership
passion
persuade
petrol
picking
pilot
print
productions
rail
ranked
raw
reasonable
rebuilding
recalled
recorders
redknapp
regarding
regulatory
releases
removed
restructuring
retire
richest
rover
salary
schedule
sharply
shocked
shortly
siemens
signals
significantly
singapore
slipped
sorry
specialist
stamp
stayed
sufficient
suicide
theme
threatening
trafford
trick
truly
underground
unique
unveil
upper
vickery
wearing
withdraw
wood
##00m
##and
##ative
##bles
##cts
##do
##ez
##fra
##front
##ges
##gue
##here
##hi
##int
##ix
##lew
##lied
##lly
##lm
##mar
##ntly
##ously
##page
##pal
##pel
##raft
##rave
##ray
##rie
##rm
##sted
##ston
##table
##tal
##tar
##tation
##ters
##ther
##try
##ued
##ull
##une
##vil
##vision
##vive
##xed
##ya
1960s
1992
57
abc
absence
accessible
adventure
adviser
affair
alert
almunia
anger
anthony
apparent
appearances
arguing
aspects
assessment
attachment
avoided
baghdad
barry
bening
bidding
blanchett
boxing
budgets
cancelled
careful
carling
center
cents
chambers
clothing
combat
commitments
complained
connell
consistent
consortium
contacted
controlling
dating
deciding
depth
displays
eddie
eric
filing
florida
flow
fortunes
fought
fuller
gather
generate
guarantee
harriers
hasn
highs
hosting
installed
insurers
intervention
kings
kinnock
korean
lansdowne
launches
lie
loose
mae
maintained
manuel
martyn
mates
maximum
melbourne
mental
metres
nationals
nominee
noted
notice
occasion
occasions
passing
patrick
portsmouth
practices
predictions
prisoner
promoting
qc
quarterly
rebate
recovered
reeves
register
retain
reynolds
rob
route
satisfied
scientists
selection
sessions
shift
sit
sitting
slide
slot
soft
somebody
spell
spin
staged
stored
successive
surface
swap
tactics
teacher
timing
traders
troops
unfortunately
ups
valued
venezuela
vinci
warn
washington
weekly
wolves
wong
wto
yushchenko
##aged
##are
##atures
##bility
##bps
##eer
##ents
##fully
##gian
##ille
##irs
##ison
##ita
##ith
##km
##let
##lling
##logical
##mpt
##oe
##paid
##rek
##rell
##rge
##rice
##sist
##tc
##umbled
##uting
##vin
1995
46
49
54
6m
72
74
95
accusing
advised
alive
ambitious
announcing
atlantic
biopic
bookmakers
brighton
brilliant
briton
bus
capabilities
carmaker
carpet
casinos
catch
chartered
chepkemei
closure
communication
concluded
constantly
custody
cyprus
dame
delegates
demanded
developer
directing
dirty
disciplinary
donate
drew
el
emotional
empire
ends
entries
eve
explains
extending
fairly
flexibility
freeview
gaining
gameboy
generated
guidelines
halifax
hantuchova
heat
historic
horror
hurdles
ideal
imagine
innovative
intent
introduction
investigations
islands
jobless
kerr
keyboard
keynote
knight
languages
leaves
leinster
liberties
lifestyle
lifts
listening
maintaining
marigny
marion
marvel
mate
medals
metal
mikhail
mms
motor
nationwide
neverland
odd
offset
olds
opec
opted
pain
politically
presidency
primary
programming
promote
proof
prosperity
publication
publicly
puts
qualified
quinn
rafael
rally
reddy
reduction
reliance
renewed
replied
resolved
river
runner
ryan
sea
shane
sharon
shaun
shouldn
signal
singing
slight
slowing
soaring
sprint
steal
stewart
submit
successfully
sue
sums
supposed
taxation
taxpayers
tel
threw
tiny
topping
traditionally
transactions
tremendous
trophy
tuition
update
upward
usher
village
vivendi
vowed
wasted
wedding
winslet
witness
zone
##11
##20
##aa
##ania
##atic
##ator
##book
##ciate
##cribe
##cs
##ders
##dge
##eers
##gie
##gin
##gling
##ico
##ild
##iles
##iling
##imate
##ining
##ired
##lity
##nan
##nation
##nch
##non
##ogg
##ored
##pare
##pher
##pm
##ress
##ric
##ridge
##rough
##sor
##star
##tering
##tis
##to
##tos
##ture
##turn
##ube
##uss
##verse
##vi
##ware
##wing
1970s
1983
1987
abused
adjusted
admits
afternoon
agricultural
amongst
apologised
appearing
approached
authors
ba
battled
beautiful
bennett
bez
bloglines
bortolami
brit
brits
broadcasts
browsers
buildings
canadian
cautious
cea
chasing
check
classroom
clips
components
connect
connors
consensus
contributions
corruption
daniel
deadline
deficits
deserve
developments
diaries
differences
dip
discover
dominate
drinks
drm
eastenders
ebay
electricity
email
embargo
eminem
enforcement
enjoying
enron
establish
evans
exploit
finds
finishing
fish
floor
flynn
formally
frozen
fuelled
fulham
gavin
gene
guidance
hall
halt
hamstring
harm
headquarters
hickie
humphreys
identified
ignored
influential
intends
intense
interface
investigate
ira
junior
khan
laboratory
laid
lampard
landmark
landscape
leary
listeners
manner
margins
mda
midlands
mining
mistakes
modest
mostly
nazi
neath
neck
nevertheless
nigel
observers
orquera
outdoor
palace
pew
planes
possession
pounds
prepare
prisoners
processors
proportion
protocol
publicity
publishing
pursue
religious
replacements
representatives
requires
resolve
respectively
responded
retailer
rid
rift
roll
seekers
settled
shall
similarly
slowed
soap
soldiers
solve
spitzer
steady
stevens
strikes
stringer
sunderland
suprnova
surprising
suspect
talked
tapes
tate
tautou
tragedy
travelling
trevor
turnover
tvs
tycoon
universities
unlike
venue
victor
viewing
viotti
voip
walked
warm
wholesale
withdrawn
withdrew
worker
##af
##anic
##ao
##ars
##ational
##aul
##bridge
##cc
##cies
##com
##coming
##cture
##dom
##ert
##ews
##force
##friend
##hill
##ho
##ibilities
##ifier
##ign
##illing
##ished
##iss
##kin
##len
##lle
##lug
##lving
##matic
##nia
##ock
##ography
##oke
##oley
##oured
##ovic
##owed
##phone
##piece
##rade
##rady
##ran
##rce
##rick
##rip
##rix
##rman
##rne
##rous
##rted
##rum
##set
##tein
##tory
##ular
##ulated
##ust
##uts
##valuation
##ves
1985
1991
2009
21st
500m
acclaimed
activist
ad
ages
anelka
animation
appeals
arguments
arnold
attempted
attitude
attractive
automatic
aviv
a�7
a�8
a�9
barrels
beattie
betting
biarritz
birth
blake
bluetooth
bonds
booked
border
brain
brief
busy
cafes
caribbean
carolina
carpenter
cate
cbi
cells
chair
chapter
checks
choices
clothes
coal
colleague
comedian
contenders
correct
costly
crack
creates
credits
cultural
czech
damien
dancing
delay
delta
democratic
den
disappear
discs
drafted
drunk
dual
earmarked
editing
edu
electorate
element
employs
enables
enhancing
enthusiasm
ericsson
examine
excess
exercise
exist
expanded
farm
fat
filmed
fishing
footage
forensic
fsa
galloway
gift
god
grace
greene
greg
gudjohnsen
guitarist
habits
hanks
hinted
holders
holdings
hotspots
household
hugh
implemented
incredibly
initiatives
inspired
institutions
interviewed
inventions
involve
iranian
jailed
jamieson
jerry
judged
kaplan
lay
leap
leonardo
lindsay
lleyton
lloyd
margin
marriage
mentioned
mep
merge
methods
michalak
mission
mix
mood
moral
munich
nanny
ocean
opinions
org
outrage
patches
pause
pirates
pm
posed
practical
premiere
prix
probe
prof
publisher
qualifying
questioning
radical
rankings
reference
relating
remarkable
rent
representative
requirements
revival
ring
robots
rolling
routine
russell
rwanda
saints
santa
scam
scams
scores
scrapped
sentenced
sentences
shoppers
shortlist
sluggish
smoking
sophos
spaniard
stance
stated
strategist
subsequent
suppliers
surplus
tags
tale
talented
technically
telecommunications
telewest
terry
themes
tomorrow
tougher
trio
typical
uncertainty
unity
upcoming
virginia
visited
visits
volume
weaker
woolf
yachvili
##15
##7bn
##ami
##au
##bank
##ber
##bon
##bre
##cast
##cate
##cation
##cel
##con
##ctured
##cturer
##cuse
##ein
##ep
##erating
##erie
##erve
##gard
##gas
##gation
##gor
##icism
##ict
##ifying
##ime
##ino
##ional
##iser
##itation
##lak
##lare
##laude
##lement
##long
##lous
##lton
##lves
##makers
##mann
##mine
##missions
##nate
##nnan
##oc
##olf
##ology
##ony
##orate
##ord
##piring
##point
##quate
##rail
##rations
##reat
##room
##ru
##sbury
##stream
##sy
##tain
##take
##uate
##ume
##uous
##ured
##urity
##urs
##use
##uth
##utton
##vert
##vise
##wn
##xes
110
1970
1989
3gsm
59
67
99
abandoned
accurate
achievements
airways
amsterdam
ancram
animal
a�1bn
a�50
balls
barrier
bars
basically
bergamasco
bets
birthday
blinkx
blockbuster
blood
boateng
bp
bpi
breaches
brentford
burst
cambridge
carriers
carroll
castle
cautioned
challenged
charities
chiefs
circulating
clay
clinton
coaches
collapsed
comfortable
communicate
consolidation
consultancy
consultation
context
conventional
conversion
copying
costume
creator
cyber
daimlerchrysler
defined
degree
deliberately
demonstrated
discrimination
divided
dropping
educational
elite
employed
employer
encounter
endured
engage
enhance
enterprise
errors
essex
estate
excited
exclusive
expanding
expenses
expression
fails
feared
firmly
garcia
gateshead
georgia
girl
governor
graeme
hang
heading
hockney
hopeful
horgan
houses
icann
identify
implications
indication
institution
insurer
intend
interact
introducing
jacques
journal
journey
kapranos
kenya
kill
knock
knowing
kuznetsova
landed
lawrence
learned
lessons
lifetime
luscombe
max
melzer
morientes
murrayfield
nadal
necessarily
negotiate
newly
nottingham
numerous
opt
owed
pacific
paramount
parmalat
paterson
permission
perry
persistent
philippe
plasma
poland
pole
poorer
portal
predicting
prestigious
principles
printed
protecting
pundits
qualify
rain
ranking
reacted
recommended
recorder
releasing
relevant
remake
rescue
resign
restore
restrictions
reward
reyes
rio
robson
robust
rusedski
sarah
secondary
separately
server
severe
ship
shortages
simpson
sisters
sms
spears
specifically
stable
stanley
stem
stress
striking
stuck
succeeded
surfers
survived
sustain
tap
tape
targeting
taxpayer
tci
teenager
teenagers
terrestrial
threshold
throw
tokyo
tonnes
tzekos
updated
valve
veto
videos
vieira
voiced
walker
walter
wayne
wells
yelling
youth
##afa
##ail
##aming
##asure
##bia
##chy
##cine
##cked
##ctor
##dicate
##dle
##dos
##dra
##ea
##ead
##eat
##eed
##eges
##ena
##ency
##erry
##essed
##eth
##fe
##gence
##gh
##gic
##gm
##hat
##icious
##immer
##ined
##iot
##ize
##ker
##ket
##las
##lers
##lock
##mbia
##nces
##ncies
##ncing
##nie
##nna
##oes
##ographic
##olk
##oney
##oning
##oot
##oring
##oth
##outs
##pace
##pc
##pered
##pire
##pression
##rapped
##ratic
##rds
##rging
##rible
##ride
##ros
##rse
##rson
##rust
##sfield
##sky
##surance
##tern
##tled
##tra
##uation
##umb
##und
##ural
##vate
##work
##worth
##yn
##zie
##zz
1981
1982
2012
acquire
adapted
affects
alfa
anderson
antonio
approve
arabia
arrangements
arsene
articles
austria
avoiding
ballet
banning
baroness
baros
battles
bear
bekele
biography
blocked
bobby
bonus
borussia
brando
brent
briefly
brings
bronze
cairn
calculations
casino
catalogue
cbs
circuit
citizen
clock
coaching
codes
combine
competitiveness
conceded
concentrate
condition
consistently
contain
contribute
converted
copper
crystal
cunningham
cycle
dave
defeats
depending
derby
deserved
desperately
dies
disclosure
discovery
distributed
distributing
district
dividend
djs
doctor
dominance
doom
drawing
duties
elton
espn
ethiopia
everyday
exeter
expense
experiences
exposed
fault
feta
finest
finnish
frequently
frontline
function
gay
ghosn
gifts
gill
gorges
governance
gprs
gradually
greenspan
grid
guide
gunners
harris
hayes
hell
highlights
hitler
holland
honest
hopefuls
horse
hp
inbev
install
interviews
investing
involves
ivan
jol
jurors
kay
keanu
keegan
keith
kirwan
kostas
lawsuits
leaked
legacy
lehmann
length
levy
locked
lucky
macrovision
magnier
matched
mcmanus
medallist
megapixel
mention
mexican
miles
mock
moscow
netcraft
neville
nitoglia
northampton
olivier
ongc
opposite
outkast
overwhelming
passengers
patrol
perspective
pigs
plaid
plot
pointing
poised
postponed
posts
preliminary
preparation
presents
priorities
proceedings
prominent
promotion
prompting
province
ps2
queries
qwest
ranks
reggae
responding
resulted
reveals
ringtones
ripguard
robben
robertson
romantic
rushed
sam
savvy
scared
scope
scrap
screening
sevens
sims
simultaneously
sized
slowly
snaps
solo
speeches
stan
strange
strengthened
stripped
submitted
suggestion
suing
summary
supports
surely
sweet
ties
toulousain
toyota
treaty
tricks
trigger
trojan
turkcell
tyranny
underlying
unknown
unusual
urban
urge
viacom
vocal
waves
weight
whistle
xstrata
yard
yorkshire
##2bn
##65
##6bn
##aas
##ale
##ansen
##ara
##arley
##ates
##ave
##az
##bal
##bes
##bilities
##bling
##can
##ceeds
##cks
##cles
##cludes
##cluding
##cock
##covered
##ef
##equate
##eri
##ew
##father
##finite
##gar
##gg
##gging
##hile
##hore
##hs
##ican
##ighed
##ills
##ils
##ines
##iously
##ird
##isa
##itarian
##iteracy
##itt
##itte
##ius
##ived
##ized
##jection
##lana
##lass
##lations
##lause
##lete
##lia
##licated
##lli
##lt
##ltering
##lu
##more
##nant
##nel
##ners
##nic
##oint
##oof
##oped
##oud
##ounced
##ounded
##ounted
##pers
##phones
##pies
##racing
##rary
##rayed
##reed
##ret
##rew
##riving
##rner
##roy
##rta
##rty
##rupted
##shing
##ship
##sight
##sis
##tance
##tched
##tude
##ulator
##unch
##unting
##unts
##urf
##ustin
##wear
##wned
##zzi
102
10bn
11bn
1973
1990
1996
233
50th
58
69
76
acquired
advocates
agents
ahold
allen
angle
animated
arcy
arena
arnesen
assistance
axa
bandwidth
bankrupt
barbara
belgium
billboard
billy
blacks
bogdanovic
boro
brokers
buyer
campaigns
cannes
carnival
cech
childcare
chunk
cinemas
claxton
clearance
coffee
colours
comics
commodity
comparison
competitions
complain
composer
compromise
concentration
concerts
condemned
consequences
constant
consultant
contemporary
contender
counterfeit
covering
crowned
customs
cymru
dates
dechy
delaigue
dempsey
denis
dennis
diana
diary
dortmund
dossier
dressing
driver
drogba
duet
ec
echoed
eff
elena
emerge
escape
evasion
examining
exchanges
extensive
extras
fantasy
faroe
fenice
fifa
filled
freddie
frederick
freed
gallery
gangs
genuinely
godzilla
grabbed
gta
guess
halted
hardest
healthy
hoddle
hotels
hutt
idowu
immense
immersive
immigrants
incentives
indonesian
indoors
industrialised
instant
instructions
integral
investigated
janet
jaynes
jazz
jointly
josh
jowell
joy
julie
jurisdiction
justin
katerina
kerry
kezman
knife
latinohiphopradio
le
lira
listings
longest
lovers
loyal
loyalty
lucas
lure
mandelson
mario
marketed
marry
master
meaning
measured
memories
meps
mercury
merged
metropolitan
migrants
mine
minorities
moderate
mpaa
mpc
museum
native
neill
nestle
newsnight
ninth
noise
notes
occurred
ore
ossie
ozzy
painkiller
paniccia
participation
passage
passenger
patenting
pentagon
perception
performers
permanent
phoenix
physics
poorly
ppi
preferred
premises
pride
prints
privatisation
promotional
prototype
psychological
publishers
purposes
pvr
qatar
quiet
raced
races
racial
racism
recycling
reflected
reflecting
regarded
relatives
renault
requests
residents
responses
rewarded
richards
rick
rodgers
romeo
roughly
saab
sack
santini
scan
sceptical
seasons
sells
shame
sharks
shearer
shoulder
simpsons
singers
skulls
sloncek
slump
spark
steam
stepping
steroid
successes
supplied
surpassed
surveyed
surveys
susan
sustainable
swapping
telephony
tense
territory
thai
thatcher
theory
thierry
threaten
throwing
trains
transmission
tunnel
ufj
unaware
uncertain
unclear
unfortunate
unveils
viktor
violent
weakness
webster
wind
youngsters
zero
##ab
##abit
##acy
##aging
##ake
##aking
##ama
##ared
##arine
##ash
##asi
##ately
##ateral
##bar
##bby
##bencher
##bies
##board
##burn
##care
##cating
##ced
##cha
##ci
##cia
##cided
##clude
##cm
##culate
##dam
##dition
##duction
##eas
##ec
##ella
##ented
##ently
##erated
##ern
##ete
##ewell
##fa
##fected
##ffed
##fic
##fies
##fine
##fying
##gher
##gies
##gle
##gos
##graphic
##ground
##haw
##held
##horpe
##ich
##icing
##icit
##imb
##inal
##iness
##isted
##ja
##kes
##lates
##lative
##law
##lets
##lish
##llas
##load
##lone
##loyed
##lyde
##md
##mers
##mg
##mission
##mor
##mping
##nder
##nus
##ohn
##ok
##ong
##orrow
##over
##phe
##phere
##plify
##ply
##po
##pose
##ppoint
##q
##ram
##rance
##rel
##rent
##ressed
##rest
##rim
##rio
##rious
##rit
##rk
##roll
##rrell
##rus
##see
##stated
##sumption
##sure
##taking
##tant
##tered
##tric
##tus
##uality
##uan
##uay
##ui
##uis
##ult
##uming
##vated
##verly
##via
##ville
##vity
##vy
##wift
##zing
05
104
10th
1974
1984
19th
20bn
4x100m
61
63
66
71
77
777
82
83
84
92
abbott
abn
accusations
aceh
actual
admission
admit
adopt
adrian
adriano
advisory
agreements
agrees
aired
airport
albeit
allied
amnesty
amro
andrews
anne
announcements
anymore
anyway
arrests
arrival
artificial
aspect
atp
attributed
austrian
a�15
a�35
bans
barred
beer
begg
belmarsh
benchmark
bernie
billed
blogging
bow
broadway
bubble
bulk
bureaucracy
bust
cables
calm
cancer
caps
carter
catholic
causing
celebrate
cement
centred
charging
chavez
chidambaram
classics
climbed
cluley
command
commentators
compatriot
compliance
concentrating
consideration
consulting
contested
continent
continental
contrary
contributed
convincing
counterparts
countryside
covers
crackdown
cry
cuban
cult
currencies
dams
davos
deaths
decides
delays
denial
deprived
deserves
designer
destroy
destroyed
detain
detentions
devon
disappeared
disappointment
disclose
diverse
dog
dominant
dominici
dramatically
drove
dtt
ear
edged
eligible
embrace
employ
employee
enabled
engaged
engagement
engaging
error
eviction
exact
exit
expenditure
exploited
explore
extreme
facility
factories
fathers
firewall
fits
fixture
flawed
flights
focusing
forcing
forever
formerly
frustrated
funeral
gameplay
gathering
generating
geoff
gervais
gray
greeted
guild
halfway
handing
hardenne
hart
henin
hey
highbury
hoffman
holocaust
homeland
honorary
hottest
hundred
identification
ii
inappropriate
incidents
inclusion
incompatible
inevitable
infection
insisting
integrity
intelligent
inter
internationally
ipods
isinbayeva
ism
jon
joshua
joss
judicial
jungle
kanye
kent
killer
knapman
lab
labor
labs
lender
licences
licensed
ljubicic
llewellyn
loved
lyrics
marc
marshall
martinez
meets
menzies
midnight
mido
migration
ministerial
minor
mirror
morquendi
mozilla
musician
natalie
navigate
nec
nelly
newton
nielsen
nostalgia
offside
opener
outlined
pakistani
patient
patterns
payne
peoplesoft
percent
periods
personality
petroleum
phenomenon
photographers
photographs
pieces
pipeline
pires
planet
plants
pockets
politician
polling
powys
pr
preparations
preview
priced
procedures
prominence
prosecuted
punished
punishment
purchased
raids
ranch
rank
reaches
realising
realistic
reassure
reception
recovering
redford
referred
refugees
refusing
regain
reluctant
remark
removal
repayments
repeat
resisted
respects
rethink
reviewed
rewards
rfid
rightly
ronan
rooms
roundabout
routes
sadly
scarlets
seal
sean
sellers
sends
setback
shanklin
sharers
shed
sheridan
skill
skin
slams
slice
snap
solicitor
southcorp
soviet
spacey
spreading
strictly
strongest
substantially
sum
superior
survivors
swapped
switched
symbian
tank
tasks
technique
techniques
televised
temporary
tens
textile
thunderbirds
thus
tiger
tigers
tivo
toll
touched
tower
trackers
traded
transformed
transition
transparency
trends
triggered
trophies
unchanged
unhappy
unified
unison
unnecessary
unsolicited
utility
uwb
verizon
vladimir
vogts
voices
voluntary
walsh
weapon
wishes
zurich
##40
##45
##8bn
##ader
##ag
##ality
##ani
##aolo
##arable
##arily
##atch
##attled
##away
##bi
##bson
##cards
##cise
##citement
##clusion
##croft
##dale
##dication
##ees
##eg
##ege
##enny
##ental
##erge
##erian
##eric
##erves
##etic
##etti
##ex
##fo
##fu
##fusing
##gels
##gement
##geo
##gne
##going
##grave
##hall
##hing
##hold
##how
##iated
##icial
##ients
##iest
##ifle
##ili
##ility
##ilton
##ima
##imulate
##inki
##ipped
##iri
##itch
##ivation
##ivert
##iving
##kay
##lair
##laws
##leep
##legation
##lie
##lington
##lised
##lished
##lishing
##lla
##log
##logs
##lop
##lops
##lter
##market
##mate
##mi
##min
##mit
##mouth
##mu
##nin
##nsion
##obi
##oked
##oll
##ond
##ono
##oots
##orated
##ough
##ov
##oyant
##parent
##pass
##piration
##play
##porated
##pted
##quiring
##race
##rain
##rained
##rates
##rg
##ried
##roke
##rset
##sation
##sie
##signed
##sm
##so
##stein
##sume
##sured
##tached
##tage
##tel
##ten
##tery
##tives
##tone
##trates
##tration
##tro
##ttered
##ua
##ude
##udging
##uest
##uid
##ulous
##vable
##velt
##ven
##vey
##victed
##visional
##vour
##voy
##vyn
##we
##weeney
1948
1979
1986
73
abba
abbas
absa
acceptable
accepting
accompanied
adams
adapt
ageing
aguas
alarm
allowance
amendment
andrea
anil
anonymous
arab
arbitration
archbishop
architecture
archives
array
attendance
attraction
awesome
azkaban
a�11
a�4m
a�50m
a�800m
baa
backwards
baftas
bailey
balanced
barely
barriers
batteries
battling
bcc
bdo
beach
beastie
beatles
beats
beauty
bernabeu
beta
betamax
betsen
bidder
billionaire
blocks
bombarded
bombay
borthwick
bournemouth
bowyer
boyd
branch
breached
brewer
brien
broker
browse
bulgaria
burnley
buzz
calculated
captaincy
capture
carers
cartoon
catherine
celebrated
ceremonies
chairs
chemical
cicero
clarkson
classes
clearing
clijsters
closest
cml
cocoa
cohen
collaboration
collections
coloured
combines
committing
commonly
commonwealth
component
concentrated
confess
confusion
contestant
contestants
conti
controller
cosby
county
cowell
credibility
cruise
curry
database
deaf
decider
decisive
declining
dee
deeper
default
denmark
depend
diane
dick
difficulties
dipped
displayed
disputes
distributor
dot
doubling
dozen
dozens
drag
dudek
duncan
dundee
dutchman
earthquake
eased
eating
ed
edition
educated
egyptian
electric
elgindy
emotions
emphasis
empty
ensures
entertaining
equality
equities
eternal
euthanasia
examples
exceeded
except
exceptional
existence
exists
experiment
extension
eyed
factual
failures
farms
fate
fernando
fields
fiji
filming
financially
flash
foxes
framework
frustration
gamble
gen
generic
genius
genocide
gerhard
gibbons
gogh
grab
grammys
graphical
griffin
grows
guaranteed
guns
hailed
hain
hal
harinordoquy
hazell
healey
healthcare
heath
hemisphere
herald
hike
hogan
holes
holidays
hooker
hunts
hype
icon
impress
influenced
injunction
instruments
interval
invisible
ip
irregularities
islam
italians
jamelia
jeff
joel
journals
jude
julia
julian
jumper
jurgen
justified
kinds
kingdom
kluft
kok
ladbrokes
landing
lanzone
lasting
laura
legendary
lenders
letters
lied
liked
linking
lo
locally
lows
lta
luck
lucy
luis
lush
lying
macklin
madonna
maggs
mann
maps
marginal
maso
maternity
mathew
mcallister
mccall
mcclaren
megabits
miami
milanesi
milk
millwall
monsanto
monster
mountain
mouth
myers
myskina
narrow
nbc
negroponte
newcomer
newport
niche
nortel
nuisance
objectives
oecd
offenders
operated
opponent
oracle
outbreak
outright
overlooked
overturned
packet
palmer
payout
pelous
perceived
phishing
pierre
playback
please
portrayal
pose
precious
presenters
pressing
prevented
preventing
printer
printing
processes
profitability
promotions
prosecutions
prosecutor
radically
rare
recruit
reds
referring
reid
rein
relies
replaces
representation
respected
restaurant
resume
revenge
reviewing
roads
rubber
rubbish
safer
sake
samoa
samuel
saracens
saulnier
scholes
schroeder
scissor
scrapping
script
seagrave
sebastien
seeded
shaw
shifting
shooter
showcase
showcasing
sidoli
sigarchi
sights
silva
sits
situations
slip
snapped
sole
sooner
sophie
sotherton
specially
spector
sponsorship
spotlight
spotted
spurlock
squabbling
stamford
stevie
stopping
stops
straightforward
stream
strict
structures
stunning
substances
substitute
sunshine
supercomputer
supplier
supporter
surround
suspend
swedish
tactic
tagging
tariffs
teaching
telekom
thin
thoroughly
tip
toughest
tracking
trail
trained
translates
tree
turnaround
turnout
twelve
twin
undermine
undisclosed
unveiling
usada
usb
valuable
ventures
viewer
violated
vioxx
volley
walking
warns
wham
whereas
whitehall
willis
wooden
worsley
wta
yangtze
yannick
yapp
youngest
##!
###
##$
##%
##&
##(
##)
##*
##+
##-
##.
##/
##:
##;
##=
##[
##]
##`
##�
